/**
  ******************************************************************************
  * @file    sine_model_data.c
  * @author  AST Embedded Analytics Research Platform
  * @date    Sat Sep 11 00:22:54 2021
  * @brief   AI Tool Automatic Code Generator for Embedded NN computing
  ******************************************************************************
  * @attention
  *
  * Copyright (c) 2021 STMicroelectronics.
  * All rights reserved.
  *
  * This software component is licensed by ST under Ultimate Liberty license
  * SLA0044, the "License"; You may not use this file except in compliance with
  * the License. You may obtain a copy of the License at:
  *                             www.st.com/SLA0044
  *
  ******************************************************************************
  */
#include "sine_model_data.h"
#include "ai_platform_interface.h"


AI_ALIGNED(32)
const ai_u64 s_sine_model_weights_array_u64[ 161 ] = {
  0xbec4868abeade9f1U, 0x3e682f99bee096ccU, 0x3ebb671cbf0412d5U, 0xbe870bdabe1a5f84U,
  0xbe5f1de63ef234f0U, 0xbce31da0be33025cU, 0xbeca81143e9a8d9bU, 0xbebd320ebf052baeU,
  0x0U, 0xbf10d6b400000000U, 0xbf1d3d4a00000000U, 0x0U,
  0xbd12934bU, 0x0U, 0x3f1ab160U, 0x0U,
  0x3cf7eed03ec4dbcdU, 0x3d2397b0bed58a87U, 0xbea6fae4be7fc87aU, 0x3ed0d5853dcdabdcU,
  0xbec14f4abcb90020U, 0x3e34bce6be922f6cU, 0x3dc40514bdc7b3f8U, 0x3e8f23ff3e1b4d5aU,
  0x3db49324be44164cU, 0x3e8528b1be68cfb4U, 0xbe3e96463df54adcU, 0x3e4d05b63d96d07cU,
  0xbed9f5d4bec98ea5U, 0x3ed7281f3ebff8b5U, 0xbda2f8c4be8a0bd8U, 0xbdd525643e998091U,
  0x3e905f4d3e99bb93U, 0x3e6631fc3df6980cU, 0x3ea3e308be83a263U, 0xbb9fee40bed43a1aU,
  0xbdb48dd43eaec055U, 0xbeda2b9abe329112U, 0xbe9393d1bb11bf9dU, 0x3ec1738b3e4ed5d2U,
  0xbe8905ce3ecd3449U, 0x3d72360fbc9712f0U, 0x3ece215e3d901344U, 0xbdb0a0443ea79e95U,
  0xbea00bfc3ed6ca80U, 0xbeb3fe2e3e9d66f1U, 0x3eb719e53dc200b4U, 0xbe46d0733bc7fdc0U,
  0xbe57fa25bea986ffU, 0x3ea084253e87b947U, 0x3d6c6d803eaa2a9fU, 0x3d7c8ef8be9d0df2U,
  0x3e2fa2563ef3a88bU, 0xbe1610f8be70f2d2U, 0xbe0a4df63bafad3aU, 0xbec6733ebeb3ccb5U,
  0xbe2c1ae83e54aedaU, 0x3f13bc40be601a1fU, 0x3f11c166bdc09fdcU, 0xbdfcd344bd626f50U,
  0x3d6dd3703e810571U, 0x3e6a5642be2bcb42U, 0xbe86d614bea3bb86U, 0xbdc3f030be57384bU,
  0x3e3d4532be3d2e8cU, 0x3eacf9f8be7f512fU, 0xbe91167fbe827fccU, 0x3c3717803ecafd2dU,
  0x3b8462403e17df11U, 0xbea54af2bec325e4U, 0xbd165e683f15025dU, 0xbd6062f0be9039f0U,
  0xbe77c4143d52e038U, 0x3e7f5a3e3e38aa3eU, 0xbf32cc2b3eabd469U, 0x3e33ea963cfb0160U,
  0x3ec53a6fbf8cb66fU, 0xbcbd72f03e549c2eU, 0xbe8841a23c356c1aU, 0x3e0c88e2bcb42f50U,
  0x3eb8cce53ea1b4ddU, 0xbed7ca1f3e51a0deU, 0xbe484b1f3e9b178bU, 0x3ccd22f03d545128U,
  0xbec85b54beba3887U, 0xbd6328883ec1ddd5U, 0x3deef7443e02382bU, 0xbde573bc3e345f12U,
  0x3ebacd4dbda1c4f4U, 0xbe042a0abcf87200U, 0xbdb756943e77bc1eU, 0x3da4c66cbe88aa35U,
  0x3ea7fd3dbdfa4598U, 0xbe0322e83d9ac3bcU, 0x3cf4ed50bea65fb6U, 0xbec8c8953d37a048U,
  0xbdb8c564be0df698U, 0xbf6f6f743d162e90U, 0xbf2bf8e4bec45b25U, 0x3e3a9feabd4f0180U,
  0xbdf07d34bd9db742U, 0xbd6236c83eab4b2bU, 0x3d62d0803ef76aa9U, 0x3d5380c8be880d5aU,
  0x3e9f45d73d9e60b4U, 0x3ec922c93d4c7a08U, 0xbeacc0b83d624550U, 0x3d8c0fd4be1b0550U,
  0xbdc502c83cc99a66U, 0x3de764bcbeb44ec3U, 0x3ed3287bbec53615U, 0xbe0e0dde3ebfdf97U,
  0x3e9db797be43eb05U, 0xbe9cbe68be1b36a0U, 0xbd7e0a68bec83123U, 0x3de1905c3d817c50U,
  0x3dd20494be1c1562U, 0x3db3fafcbea05c0aU, 0x3e5e2542bed9e778U, 0xbeb40958beda11c1U,
  0xbd8cbfb0be0b47baU, 0x3ecfb3c13e20d26aU, 0xbea0740b3ebcfdc1U, 0xbea30caa3e3272a6U,
  0x3e0087bebed5ddf3U, 0x3bb9f5803d90699cU, 0x3dc6eac4be851e32U, 0xbe8bad4cbde1d248U,
  0x3e8e44c13d9f2ab4U, 0xbf81e0b0be8fbfdaU, 0xbf6acd6abec1b026U, 0x3e51afda3e23792aU,
  0xbe2333da3ebfd8cfU, 0x3e4132c23eb98f97U, 0xbdb7a5283d3e9087U, 0xbe5be546be296106U,
  0xbe48984dbeb074f8U, 0xba841e833e570346U, 0x3e8db4fc3d810564U, 0x3d9429843de32554U,
  0xbed325fd3c5bd79fU, 0x3edb4f89be7ae3f6U, 0xbcdddda03e1363afU, 0xbed11895be972ee0U,
  0x0U, 0xbd76232fbe1d31bcU, 0xbf67f312bd0692c9U, 0x3ededa9d3e8d7231U,
  0xbc2af68aU, 0x3b64dd8a3ea10424U, 0x0U, 0xbe96c3723e817ce0U,
  0xbe47a282bf081f38U, 0xbea8e3713e997333U, 0x400c5b50be5c0546U, 0xbfa5ea20be769ae9U,
  0x3df1d3c0be9af83cU, 0xbe65bd4f3f927eb2U, 0xbf01e4df3e534ac4U, 0x3ee1eab13fb5bc18U,
  0xbe8fd1f1U,
};



AI_API_DECLARE_BEGIN

/*!
 * @brief Get network weights array pointer as a handle ptr.
 * @ingroup sine_model_data
 * @return a ai_handle pointer to the weights array
 */
AI_DEPRECATED
AI_API_ENTRY
ai_handle ai_sine_model_data_weights_get(void)
{
  static const ai_u8* const s_sine_model_weights_map[1 + 2] = {
    AI_PTR(AI_MAGIC_MARKER),
    AI_PTR(s_sine_model_weights_array_u64),
    AI_PTR(AI_MAGIC_MARKER)
  };

  return AI_HANDLE_PTR(s_sine_model_weights_map);

}


/*!
 * @brief Get network params configuration data structure.
 * @ingroup sine_model_data
 * @return true if a valid configuration is present, false otherwise
 */
AI_API_ENTRY
ai_bool ai_sine_model_data_params_get(ai_handle network, ai_network_params* params)
{
  if (!(network && params)) return false;
  
  static ai_buffer s_sine_model_data_map_activations[AI_SINE_MODEL_DATA_ACTIVATIONS_COUNT] = {
    AI_BUFFER_OBJ_INIT(AI_BUFFER_FORMAT_U8, 1, 1, AI_SINE_MODEL_DATA_ACTIVATIONS_SIZE, 1, NULL)
  };

  const ai_buffer_array map_activations = 
    AI_BUFFER_ARRAY_OBJ_INIT(AI_FLAG_NONE, AI_SINE_MODEL_DATA_ACTIVATIONS_COUNT, s_sine_model_data_map_activations);
  
  static ai_buffer s_sine_model_data_map_weights[AI_SINE_MODEL_DATA_WEIGHTS_COUNT] = {
    AI_BUFFER_OBJ_INIT(AI_BUFFER_FORMAT_U8, 1, 1, 1288, 1, s_sine_model_weights_array_u64),
    
  };

  const ai_buffer_array map_weights = 
    AI_BUFFER_ARRAY_OBJ_INIT(AI_FLAG_NONE, AI_SINE_MODEL_DATA_WEIGHTS_COUNT, s_sine_model_data_map_weights);

  return ai_platform_bind_network_params(network, params, &map_weights, &map_activations);
}


AI_API_DECLARE_END
